[PAD]
[UNK]
[START]
[END]
!
"
#
$
%
&
'
(
)
*
+
,
-
.
/
0
1
2
3
4
5
6
7
8
9
:
;
<
=
>
?
@
[
\
]
_
`
a
b
c
d
e
f
g
h
i
j
k
l
m
n
o
p
q
r
s
t
u
v
w
x
y
z
|
¡
£
§
©
°
±
¶
·
æ
ø
ı
ł
œ
ʼ
β
–
‘
’
‚
“
”
„
•
⁄
€
−
≤
▫

�
se
na
ze
je
##m
by
##ch
to
##ho
do
ve
pro
jako
za
##i
ale
jsou
##u
aby
si
ktere
##y
##a
nez
##t
vsak
##l
##ni
##ne
##mi
##em
jak
tak
po
od
##ci
bude
##e
zeme
160
##la
jejich
##ji
usa
ktera
jeho
jen
##ny
uz
##ly
nebo
##mu
zemi
byt
mezi
kdyz
ktery
##na
co
##li
take
roce
##o
sve
neni
dnes
let
muze
##n
budou
ma
pred
nbsp
bylo
proti
musi
roku
##lo
##ce
eu
ke
jeste
##nou
ci
financni
ani
byl
li
coz
tyto
vice
lidi
tento
##me
globalni
pri
##ou
##nych
pokud
byla
dalsi
tomu
vlady
kdy
az
tim
##jsi
##ove
##s
jez
maji
tedy
stale
dolaru
napriklad
statu
toho
podle
##ky
##ovat
##ku
staty
mohou
letech
bez
rust
##je
behem
nove
zda
svete
krize
kteri
pak
tato
kde
politiky
zemich
mezinarodni
proto
techto
##r
lide
jiz
evropske
##k
##ka
vlada
prave
jeji
byly
trhu
rustu
teto
protoze
tom
stejne
sveta
mnohem
lze
spolecnosti
banky
mozna
##va
##ech
navic
kdo
vsechny
vetsi
avsak
oblasti
svou
temer
politicke
pouze
mene
##ve
nad
##ova
ne
mnoho
velke
ovsem
zejmena
ekonomiky
svet
##d
##nu
mit
spojenych
##ra
prilis
##v
##ska
americke
##ovani
tohoto
strany
moci
svych
vsech
ji
##sti
dokonce
sice
##si
cina
vzhledem
pomoci
nebot
reseni
stat
casto
vuci
hdp
jsme
svetove
mela
zatimco
evrope
dobre
kdyby
krizi
mely
##te
dalsich
soucasne
ceny
skutecne
##c
##vy
vic
##jici
jsem
vyssi
##nosti
##nost
vetsina
##ovy
prvni
mnoha
meli
##nym
pod
##ske
jim
vlastni
stoleti
##ovych
proc
unie
##tu
centralni
pripade
pravdepodobne
valky
##cich
politiku
poslednich
pristup
vcetne
ted
##ru
##st
##oval
trhy
##sky
evropa
fiskalni
politika
##zi
narodni
milionu
dobe
toto
rusko
mohla
mel
##it
evropy
miliard
ekonomicke
dal
zaroven
##skou
treba
prezident
kvuli
systemu
takove
dusledku
system
dluhu
nejen
nejsou
zrejme
##le
osn
##uji
##cu
jde
cilem
##ty
diky
##vou
##z
mohl
##uje
tuto
rovnez
spojene
##kou
nikdy
investice
socialni
zahranicni
mohly
jine
nich
tri
samozrejme
##ta
mmf
zmeny
problem
ciny
##ovou
organizace
nakonec
nektere
problemy
##ry
20
prezidenta
druhe
opatreni
totiz
##ti
svuj
rozhodnuti
demokracie
pritom
sily
znamena
##re
plati
nas
prace
pricemz
sveho
zapotrebi
iraku
kterou
existuje
misto
naklady
jeden
##el
hospodarske
deti
##h
presto
##ovaly
sektoru
##ovala
firmy
nichz
bank
prostrednictvim
##vu
nekolik
##da
cele
navzdory
##ovi
nic
tomto
##eni
dale
verejne
zvyseni
##p
bychom
podobne
##no
cast
novych
##at
obchodu
velmi
problemu
nejvetsi
cen
podporu
obdobi
takze
politicky
usili
ekonomika
##du
##ovali
##ri
zhruba
nybrz
nebude
nekolika
mohlo
mozne
skutecnosti
pocet
ropy
niz
melo
regionu
eurozony
##ze
##um
byli
rychle
##nich
financnich
statech
prava
posledni
energie
spolecne
obchodni
nadale
nyni
evropska
ty
zpusobem
veci
urovni
nemecko
##skych
roli
##cni
##0
penize
prostredi
moc
vsichni
##lne
mimo
prestoze
instituce
reformy
##vi
pracovni
rada
sazby
zajistit
nelze
nekteri
pres
lepsi
jenz
hlavni
snizeni
americky
rok
pomoc
##neho
##sko
cile
bezpecnosti
malo
dva
prijmu
mnozi
dvou
vubec
##ele
cim
silne
nam
novy
riziko
mu
ekonomiku
neco
domaci
nemuze
znovu
dusledky
lety
nikoliv
jedna
dve
tvrdi
miry
politik
znacne
##il
celem
vydaje
situace
at
spise
prilezitosti
dlouho
ni
##vani
konecne
statni
trh
vzdy
jiste
pracovnich
##di
politickych
investic
##sku
predevsim
skupiny
hospodarsky
indie
dnesni
kapitalu
rizika
banka
zustava
doby
nato
new
schopnost
abychom
ho
##tni
nekterych
americkych
##lu
predstavuje
ruska
##vat
pote
ecb
vysoke
vladni
##ovane
francie
##de
takovy
urokove
financi
anebo
nase
stoji
skutecnost
kazdy
britanie
penez
jinych
obvykle
##on
dane
jasne
amerika
cine
nedavno
miru
##nymi
rozvojovych
ackoliv
jej
nova
##osti
komise
2008
jednani
##nim
nizsi
##bu
##b
##nejsi
mohli
zbrani
##zeni
casti
velka
demokracii
##kem
ponevadz
financovani
##dy
spolecnost
inflace
moznosti
muset
svym
klimatu
##dne
dosahnout
politice
strategie
zasadni
zajmu
nasi
zajmy
30
prijmy
programu
rozdil
vliv
politickou
##al
japonsko
obyvatel
oproti
jehoz
zde
americkeho
rady
##ene
globalniho
jejichz
moznost
americka
##nout
menove
snazi
ti
volby
predstavitele
naopak
ostatni
hodnoty
##ena
instituci
prostredky
snad
stredni
vyzaduje
hospodarstvi
kolem
##ma
strane
rizeni
zivota
pristupu
rocne
zadny
zdroju
musime
##cka
radu
##ovana
##nce
drive
##se
##by
dohody
aktiv
proces
situaci
##vych
rozvojove
spolecenstvi
##icke
vysi
zakladni
##cky
rostouci
takova
krome
##ovanych
vedeni
zadne
existuji
tech
zapadni
##cke
##eny
rozvoj
##ovany
zahranici
jedine
jednim
##ek
politici
duvodu
50
procesu
severni
cas
izrael
##ovym
britanii
zdroje
te
vojenske
rade
rozvoje
lepe
smerem
obama
prav
vztahu
##be
podil
nema
potrebuje
velkou
jizni
prinejmensim
mist
jednou
pravo
zivot
90
rezimu
jakmile
nikdo
zcela
##an
sluzeb
jimz
otazka
vyrazne
minulosti
firem
zpusob
plne
poctu
zase
##su
nasili
valce
jinak
soucasti
##hu
##j
10
mezinarodniho
vychode
vladu
nezamestnanosti
technologii
asi
praci
ramci
verejneho
postaveni
##skeho
iran
tu
vzdelani
evropskych
sebe
budoucnosti
cinske
otazky
cimz
stalo
zadna
schopnosti
##nuje
vlad
obavy
##ba
fondu
politicka
zdravi
iranu
jedne
vazne
##ila
##ko
dani
prospech
hospodarskeho
bohatstvi
asii
##elne
##nuti
dulezite
zbozi
##ych
jednoduse
##cne
clovek
nutne
presvedceni
primo
##nuji
bezpecnost
nicmene
otazku
##ost
energii
##icky
valka
zemim
##8
cenu
##2
dlouhodobe
dluh
ba
ohledne
emisi
##en
##cim
narodu
rozhodne
uroven
vyzkum
novou
sobe
vydaju
jelikoz
zen
dalsim
obrovske
vse
##eho
program
unii
vyznamne
chovani
vyvoj
dat
ekonomice
snizit
plynu
domacnosti
ekonomicky
vede
bohuzel
##ceni
##elu
trzni
mnohe
nemohou
##er
chudoby
trzich
reakci
dokaze
hranice
vytvoreni
##zovat
populace
tam
##rne
##g
desetileti
nemz
nezbytne
opet
sazeb
##ii
recese
sil
hnuti
omezeni
cil
##aci
##vaji
obou
vetsinu
stala
pozdeji
vysledky
##ickych
obe
pozornost
##4
##dni
lidem
americe
vytvorit
vyznam
##eli
mezinarodnich
vysledkem
80
ameriky
muzeme
##vne
nemecka
##lni
otazce
revoluce
york
clenskych
jadernych
regionalni
##am
##f
ziskat
##nem
bankovni
velkych
##ami
budoucnost
doslo
lidri
##or
podminky
soucasnosti
snaze
technologie
dluhopisu
tolik
chteji
noveho
jinde
plan
vychodni
inflaci
##7
uspech
cilu
rozsireni
globalizace
##ste
uvnitr
nedavne
udalosti
zatim
ohledu
verejnych
zvysit
jake
oblastech
tehdy
snadno
zaklade
##5
##stu
dosud
resit
spatne
mista
trvale
konci
##1
kroky
prilezitost
##jicich
##ane
indii
typu
##zni
francii
lidskych
podobe
##bou
zdravotni
zmen
rusku
vyzkumu
patri
roky
bush
nej
recko
zeny
duvod
deseti
##ke
alespon
dobu
evropu
dopad
ekonomik
volbach
60
oteplovani
predstavuji
reakce
##vni
daleko
strana
##vost
coby
fond
konfliktu
nejvyssi
pocatku
vseobecne
nebudou
treti
##ie
##niho
##zne
stane
trebaze
urokovych
pravidla
vitezstvi
nemusi
zajem
2010
stal
##sty
spolupraci
zari
##ha
##tne
bezpecnostni
##ily
##stvi
celi
vsem
##nci
politickeho
vest
aniz
nemaji
obchod
ostatne
zajisteni
domu
silu
##niku
##skym
africe
ekonomickych
##zuje
evropskou
organizaci
##koli
cestu
globalnich
snizovani
stability
vedouci
vztahy
000
jednoho
opravdu
jaderne
strategii
##9
krok
sektor
snahy
vysledek
investori
dohoda
zememi
##ovalo
nemecku
svetova
mame
prve
velice
verejnosti
##nske
##ckou
nezamestnanost
rezim
meny
neexistuje
##alni
##koliv
miliardy
najevo
potrebuji
rozvijejicich
nejlepsi
al
valku
reforem
##jsim
danove
eura
boj
celkove
##zene
svem
nebylo
sluzby
70
vyuzit
##6
##rovat
programy
spoluprace
euro
zlepseni
##ach
dolar
obcanu
##ili
15
2009
mnozstvi
potreba
pokles
cely
##ace
##rat
mira
tudiz
demokraticke
dokud
dost
vzestup
##3
40
jestlize
nekdy
velky
vseho
##bi
putin
chce
kdysi
udrzet
vysoce
nizke
dostatecne
##my
regulace
2000
spravne
vzajemne
##vosti
administrativa
stran
##hy
##to
afghanistanu
miliony
prakticky
##ckych
udelat
ukazuje
delat
konce
nadeji
receno
zodpovednost
nazor
ochranu
pokrok
##tou
podpory
hodnotu
mistni
pocit
pravda
stabilitu
vlastne
##kove
budouci
mensi
pokroku
poptavky
ruznych
##ani
americane
zivotni
deset
pouhych
ten
tvori
uradu
turecko
casu
##zovani
uzemi
##ismu
prvnim
##rem
zapad
relativne
soukrome
ta
pristi
##sla
prostredku
urcite
zotaveni
model
##rni
25
vladnich
##ujici
dopady
asie
ruske
cini
priblizne
##novani
##sy
dosazeni
##ng
obeti
syrii
##oru
loni
sebou
uveru
male
nazoru
zmenu
2001
2007
pripadech
nadeje
ostatnich
smyslu
evropskeho
zacit
##nit
##et
##lovat
japonska
vetsine
##laci
##rit
##skem
nemoci
sam
tisic
zapadu
letos
rozsahle
stavu
zpusoby
##iste
clenstvi
zprava
boji
celeho
ocekavani
##aji
clenske
tlak
vody
zdaleka
11
ekonomove
chudych
peti
brzy
nim
skupina
uctu
vlade
##zuji
cinu
infrastruktury
pristich
vyvoje
dvema
moderni
naproti
jednat
podstate
cela
##ctvi
celosvetove
veku
totez
zpet
generace
##novat
##rani
me
presne
jenze
nesmirne
##pi
hospodarskou
##jsich
evropsky
investicni
my
tomuto
##lna
##uv
2015
produktivity
sama
vzdelavani
##lny
##rou
druhou
rad
zakona
kontrolu
otevrene
potravin
spolu
##leni
jinymi
studie
uspechu
##rske
napric
problemem
##smu
##zu
budeme
planu
univerzity
osob
##vym
##niky
pokracovat
ministr
voleb
##oveho
##sta
nakladu
tezke
efektivni
george
klimaticke
vamp
clenu
zmena
##icka
prevazne
svobody
soustavy
slovy
##lit
pravni
vysledku
##ovymi
timto
##ismus
##nska
oziveni
takovych
eurozone
jedinou
podstatne
kurzu
obcane
##tem
hlavnim
utoku
zodpovednosti
##zit
zvysi
##cuje
##dit
informace
konkurencni
zacala
zdravotnictvi
##ana
bilionu
cena
emise
americkou
ctyri
##reni
nebyl
namisto
narodnich
nebyla
##hne
##jme
##krat
nejmene
prostor
zbrane
ja
jednu
pochopitelne
prohlasil
sami
##ickou
evropane
prinosy
rika
##in
den
naprosto
navrh
smlouvy
zahranicnich
zakon
mocnosti
##vo
izraele
nerovnosti
poptavku
vec
zmenit
nikoli
pripadne
terorismu
zkusenosti
globalnim
otazkou
zavedeni
##zeny
eur
podarilo
systemy
zamestnanosti
##smus
ekonomickou
mir
potencial
premier
recesi
##enych
dan
ekonomickeho
obcanske
strukturalni
##neni
bohate
natolik
okolnosti
##za
koneckoncu
nimi
ekonomikach
federalni
hrozi
ponauceni
chvili
hlediska
tradicni
zmene
ztraty
dohodu
poprve
vysokou
##rny
podpora
pripadu
uspesne
vyhlidky
##raci
kapital
tamni
##sticke
byvaly
celou
horsi
projektu
regulaci
mineni
posileni
vudce
zcasti
co2
temto
obyvatele
statnich
obchodnich
partnerstvi
##cny
##dla
ano
cinska
ekonomicka
pet
postupne
italie
##ym
energeticke
konec
nemeli
takoveho
bohatych
dovolit
financniho
staly
##tovat
jejim
pravdu
sireni
##covani
cinnosti
kazde
mire
uspor
##ivni
zjevne
##w
2005
naznacuje
zni
ramec
rizik
##rene
mimoradne
dokazou
nemovitosti
podminek
##kci
danovych
smysl
zpravy
informaci
##pu
integrace
socialnich
zavisi
oficialni
rozvijejici
silnejsi
tvrzeni
##alne
##hla
akcii
dava
konkretni
mesic
sirsi
volici
urovne
dukazy
odpoved
parlamentu
pece
pohledu
##any
##kych
mesicu
najit
nerovnost
obecne
obcany
realne
teprve
chude
ocekavat
role
snaha
tem
##seni
druhy
fed
rozpoctu
100
bud
jevi
revoluci
rozvinutych
spis
utoky
zustavaji
##kce
poklesu
vyspelych
zvysuje
##x
lidske
vsechno
deficit
duveru
jineho
potrebne
##peni
nemecke
pojisteni
souladu
svetovou
vladou
modelu
zacaly
##del
##ruje
stranu
##sly
clenove
lidska
moralni
mesta
ucinit
volebni
nedokaze
polovinu
tito
nedostatek
prinasi
takovou
##isticke
dojde
##aly
intervence
produkce
poptavka
umrti
ceste
jich
dluhopisy
internetu
##haji
brazilie
studene
trump
##huje
##val
##zy
boje
hodnoceni
kapitalove
potrebujeme
recka
vysoka
##dna
pujcky
irak
kratkodobe
soucasna
##bit
2004
cesta
dostat
usporadani
vetsiny
##anu
##lem
hranici
jedinym
prumyslu
zemedelstvi
kolik
japonsku
znalosti
##ticke
kulturni
liberalni
vynosy
blizkem
postoj
summitu
uplne
rekl
2011
samotne
dochazi
prikladem
politickym
pravidel
vsude
nasich
novym
podpore
spociva
vlastnich
jakou
sila
ukol
vudci
zustane
zavazky
##hodne
##izaci
nehoz
nejvice
prudce
vyhnout
mezd
udajne
##ity
vyuziti
evropsti
londyn
prezidentem
snadne
nijak
ocekava
strednim
vychod
##cum
##zovaly
americanu
amp
rozdily
zavest
##nici
##py
2006
nezavislost
ruskem
soukromeho
vnitrni
obrovsky
takto
tempo
##ala
mi
mzdy
obzvlast
zivotniho
socialniho
vyznamnou
dluhy
doma
hlavu
inovace
##gu
duvery
mysli
zisky
##sticky
verejnost
zivotu
financnim
statum
svetu
tezko
americti
korupce
nebezpeci
strach
##izovat
paliv
vlivu
zakony
zivoty
##ita
##sel
neustale
pravdepodobnosti
smrti
svetovych
##ici
prijmout
ukazuji
##ela
##ncu
bushova
kazda
pohled
prozatim
ucinne
zadnou
##ntu
jiny
klimatickych
predseda
zalezitosti
jediny
zabranit
cinou
peci
neschopnost
##dil
##zena
##zoval
odpor
vyuzivani
zacne
bodu
skolstvi
teorie
turecka
menova
proste
svymi
zacina
##sa
klicove
rozhodovani
ruzne
svetoveho
temito
ulohu
zije
##lizace
##ovu
cili
nastroje
stav
##cna
##sni
12
fungovat
jaky
jednotlivych
duvodem
navrat
rocni
##dny
cleny
skupin
odrazi
ohrozeni
tvrde
##jde
##ovanou
2012
centralnich
dne
kampane
soucasny
cloveka
oba
obtizne
potencialni
potreby
veritele
##cena
##ruji
desetiletich
desitky
nimz
hlasu
kurz
projevu
prumeru
silny
##tit
##vem
hodnote
vyvolava
##ora
nemela
omezit
vyresit
vyjednavani
zacal
##jni
jejiz
posilit
pozadavky
vetsinou
volicu
##hly
##nice
korea
nabizi
soudu
##tnou
hluboke
mezinarodnim
nalehave
naznacuji
veri
vyhody
vytvari
zbytek
aids
nemel
vyuzivat
##elny
##izace
##vovat
budovani
bydleni
hluboce
##ory
aktiva
cestou
de
mladych
objemu
podporovat
samy
zamestnancu
##kami
##live
##lou
##rt
americkym
drzi
fosilnich
menovy
pusobi
tvurci
##iho
##ro
kapitalovych
politikou
rozsahu
##rena
duvody
pochopit
prijeti
spravedlnosti
svobodu
##dou
##eji
##kovat
dalsimi
institucionalni
rozvoji
skrty
druhu
nazory
organy
zvlastni
2014
bilance
hrozbu
okamzite
rukou
zvysovani
funkci
podporit
##cuji
konflikt
menoveho
prohlaseni
rychleji
ustavy
vlastnictvi
vojenskou
##kam
##lnych
##telne
priklad
##kcni
##sne
##tat
##znou
obrany
##covat
##vuje
britske
hospodarska
libanonu
umoznuje
kampan
menovou
premiera
##huji
##ice
##lene
##nik
cesty
hamas
pozitivni
pravomoci
vztah
##nskou
dejinach
investovat
jejiho
lidu
podporuje
statem
veskere
##cit
##im
nabozenstvi
predpokladu
##atu
##cnich
##nskych
##sek
finance
hodnota
latinske
leta
zaprve
dulezitejsi
sklon
slova
soukromych
vedle
meni
nezavislosti
syrie
zpusobu
cinsky
ohledem
snizi
##tvi
dejin
meritku
objem
##od
2013
cambridge
hlasovani
investoru
pudy
##pa
platit
podniky
ukolem
vime
vyzadovat
##dila
##ely
##hat
##vejsi
administrativy
faktory
jakekoliv
obzvlaste
vedou
vzestupu
zamestnanost
napeti
podniku
prumyslove
site
##zen
skoly
hrat
prijem
roste
##cem
drzet
stare
uspory
zacali
zajisti
##ite
##vali
##zovala
jedno
kontroly
on
reformu
vpred
zadluzeni
ery
hiv
osobni
trpi
##ona
##vit
##zenou
italii
soud
spotrebitele
##kovych
##luje
##ovaci
armada
castecne
pripad
vedi
ochrany
vychodu
zretelne
##elna
##nd
##tivni
##tuje
armady
listopadu
mysleni
##iku
##rskych
diskuse
vyjimkou
##jit
##jske
##znost
##znosti
dusledkem
fedu
jini
nekdo
rodiny
skody
tvar
##hl
##ing
fakt
prosazovani
vezmeme
zpomaleni
##vest
2003
urady
velkym
zakladnich
##lozit
dluhove
dramaticky
reforma
dalo
izraelem
konkretne
nebyly
negativni
zacnou
##jne
##pe
##skymi
spotreby
uprchliku
##ilo
##sit
region
spolecneho
##snou
lec
pravdepodobnost
##alu
aliance
zamestnani
##alismu
##hou
arabske
nejlepe
neznamena
##tky
korupci
uhli
vyzvy
zvysil
##dnou
jimiz
vzdyt
##hnout
##noval
hodnot
jina
prubehu
tempem
##nove
##ticka
##zny
data
francouzske
francouzsky
poskytnout
zit
##ovo
##tek
hlavnich
nejprve
radeji
ustavni
zarizeni
bushe
cinskych
jistou
ruce
stezi
umozni
vedlo
##is
debaty
ekonomie
kazdeho
pricinou
ridit
silou
##ime
##reny
neschopnosti
potrebu
##ciho
##tickou
integraci
nejenze
predpoklada
tkvi
##are
##ori
##pit
##veni
argumenty
iniciativy
minuleho
pevne
projekt
tyden
##ral
dohromady
hamasu
hospodarskych
japonske
plany
zisku
zvysila
##nt
afriky
dostatek
generaci
nemelo
prosazovat
prvnich
##dava
jit
nebezpecne
pakistanu
palestinci
postup
prehnane
zachovat
##sticka
tentokrat
muzi
nastesti
##ali
##hani
##telu
lidmi
praxi
prinos
spanelsko
verejny
zapade
##sli
nabidky
rustem
uvolnovani
vytvaret
##dovat
##ga
driv
prumysl
soucast
stabilni
urad
utok
zalozene
zaveru
dejiny
pracovat
resenim
rokem
soucasneho
vojenskych
##oji
koalice
rezervni
vi
zavazku
##es
##kt
dala
stranou
##alo
##enou
##omu
##tace
naseho
regulacni
schodky
svazu
##lizaci
##vadi
arabie
argument
jednotlive
platebni
posun
ucelem
zastavit
##ive
##luji
##rska
mladi
nadchazejicich
povede
projekty
radikalni
sest
vladnuti
##byva
##zil
miste
nevyhnutelne
pouhe
predtim
nejvetsim
pujcek
rozsirit
snizuje
vyporadat
druha
hledani
investory
nimiz
sankce
vnejsi
volneho
bezpochyby
daly
demokraticky
jinym
narodniho
nemely
rozpocet
srovnani
##lske
izraelske
nejakou
potize
pry
zdrojem
2002
deficitu
iranem
obdobne
onemocneni
preziti
stava
zahrnuje
##cnych
##nil
branit
inovaci
komodit
nedostatku
pomalu
sovetskeho
sva
tyce
##tka
bubliny
kontextu
podari
##dlo
##rove
##ticky
dele
dosahuje
odpovedi
vzniku
zlepsit
zustat
##inu
##zila
bezne
dispozici
domacich
mest
opetovne
recku
trend
zalozena
##alismus
hovori
jaderneho
minuly
podporuji
presvedcit
procent
svemu
touto
##bni
##zky
ukrajine
vykon
vyznamny
##nemu
opakovane
podnikani
sklenikovych
stesti
terorismus
##jicim
kratce
prekonat
tlaku
usilovat
vybudovat
##stickou
##vske
##zna
inflacni
nejaky
produkci
##chu
##kova
##nsky
##nstvi
##povat
##smem
brani
izraeli
konkurence
postupu
pozornosti
pravem
rozsah
soucasnych
vyse
##elem
##jdou
##jska
##tuji
modely
otazkach
pokracujici
silnou
velikosti
##chy
evropou
funguje
jisty
konferenci
pomeru
pozici
prispet
takovem
##rna
##sem
islamu
kongresu
predstavit
slo
spojenymi
ucasti
##nty
hned
kombinaci
##chazet
##dili
##ov
odhodlani
oni
selhani
snizila
vedci
ziskal
##ovanym
celit
funkce
lidskeho
mistech
prezidentske
##hem
##pravu
##sene
nechat
obcas
padu
tvari
ucast
udrzeni
ziji
##bne
##ecny
##novala
barack
dotace
nejake
palestinske
pochopeni
pohybu
tema
vojensky
zavazek
##ol
financovat
hry
intervenci
leku
navrhu
pracujicich
siti
18
asijske
hlavniho
mesicich
pomer
spojenci
tyka
vyzaduji
##resi
1997
dela
egypt
lisi
obavaji
reagovat
vedenim
vskutku
##nika
##zace
##zovali
aktivity
chranit
ekonomu
nabozenske
navrhy
produktu
ukonceni
uvery
##nujici
##prava
of
par
vedomi
vysokych
##cha
cinnost
konference
mirove
vynosu
vysvetleni
##ickym
##nky
##ntni
##rova
mestech
prirozene
stezejni
vlastniho
vojenska
##dani
##nskeho
ameriku
pouziti
skutecny
debata
dohode
polovine
predstava
uhliku
vyvolat
##00
##hnou
##iky
##valy
1990
akci
maly
nejvetsich
nemecky
pusobeni
rovnovahy
uznani
vizi
ziskala
##cene
##meny
agendy
ciste
docela
konzervativni
zadruhe
zmenam
znamenat
##ar
chceme
men
spotrebu
zasade
dalsiho
kapitalismu
merou
nezavisle
predni
principu
skutecnou
stavi
##ejsi
##ent
##kach
##lnou
##zenych
davaji
deje
dnesnich
globalizaci
komisi
opozice
potencialne
pozice
toku
ucinky
zalivu
ekonom
historicky
klicovych
silici
strategicke
vojaku
##aru
##as
##hodny
##istu
##nila
##tez
menu
prime
principy
snahu
zabezpeceni
##ceny
##icti
##tal
1999
bezneho
centra
deni
poslednim
prece
udaje
zdaneni
znamenalo
##gy
##ina
##mani
1989
britsky
hranic
nejdulezitejsi
papiru
trvat
vedl
##ard
##aticke
klicovou
komunity
koreny
kultury
postavit
udrzitelneho
##cku
##cnou
##dku
##kum
##son
##vala
jejimz
mechanismy
mistnich
propast
soucasnou
vazby
##lat
##onu
##rel
akce
mori
organu
soukromy
sto
strachu
zachranit
zoufale
##iva
##men
##novaly
19
budoucnu
dobrou
hrozba
krokem
kterym
nedokazou
prosinci
skrze
spolecnou
sporu
##ovan
##rie
bojovat
demokratickych
druhym
duraz
kolektivni
nemu
spolecenske
##ecna
##jte
##ovne
##vil
##zou
brat
diskusi
dohled
faktoru
likvidity
prirodni
rusky
zalozeny
zastanci
zbytku
##fa
2030
cinitele
dlouhodobych
narust
oblast
oecd
pocatkem
vedla
vlastnim
zakonu
zhrouceni
##ich
##ik
##ymi
dobra
muzu
nejlepsim
okamziku
prezidentskych
pristupy
washington
##ckeho
##jsky
##lace
##lych
##raji
##seji
##tych
agentury
kapitalismus
mechanismu
nesmi
podporou
ruku
silna
slabe
##rovani
dobry
jemuz
otazek
ponekud
vstupu
##aha
##buje
##dnych
##race
##slo
chudym
kdykoliv
konkurenci
malych
vuli
vyroby
zacalo
##lky
##lozil
dosazeno
exportu
klicovym
pakistan
pomerne
struktury
ukrajina
zavislost
##dci
##isty
##toval
arabskych
iracke
sanci
vzit
zavislosti
##gan
##ivy
cennych
dosahl
eurozona
fondy
historie
koncem
nem
nizkou
obrovskou
odhaduje
propad
vratit
##sna
##znejsi
humanitarni
ministra
poskytovani
radi
tady
vstup
vypada
vyznamu
##jeme
##menu
##pusteni
##rsky
##taji
dojem
hrozby
leky
nedostatecne
prumyslovych
trech
##bor
##det
##zujici
bushovy
mechanismus
parlament
##ika
##rskeho
13
cinskeho
dnesnim
kongres
mexiko
prechod
rovnovahu
schodku
smlouva
vedecke
vyznamnym
zamerit
znecisteni
##neji
##telna
citi
deficity
myslenky
rozhovoru
sarkozy
slovo
smerovani
takovym
ucinek
videt
vize
zavadeni
zdalo
##idu
##itu
##pat
brazilii
chudi
hlubsi
internet
nepravdepodobne
odvetvi
siroce
wto
znacnou
##ckym
##cnosti
##lnosti
##nie
##rum
##tiky
dosahla
levice
nastroju
odhadu
polovina
pracujici
prednost
prvniho
viru
##cnost
##lic
##zaci
##zela
200
afrika
predchozi
rezerv
uvahu
zvysovat
##cove
##hlizet
##lady
##rnou
jednotky
majetku
saudske
valkou
vyplyva
##tiku
500
absenci
bankam
da
elity
mesice
prebytek
ruskeho
slouzi
spravy
stavajici
##lici
##nova
1998
americkem
chudobe
komunisticke
poskytuje
postoje
praxe
prosperity
sile
vedy
##znych
bezpecne
dari
existenci
princip
tisice
zapadnim
zdroj
##tel
##zity
bezmala
budoucna
efekt
historii
nedavna
pobidky
shromazdeni
the
zacinaji
##cimi
##oje
##ren
##vnejsi
##vny
ac
bankovnictvi
blizi
extremni
prirodnich
riziku
samotny
snazit
svetem
uspechy
ustavu
vytvareji
##eno
##novi
byvaleho
cenove
ministerstva
nejde
niceni
prekazky
smrt
zamestnanci
zname
zvysily
##sad
dodnes
fungovani
john
napsal
nejhorsi
nezbytna
ocividne
pudu
toky
valek
velkeho
zaklad
##iv
##lsky
##novy
##zel
##zove
16
britska
egypte
federalniho
nese
podilu
urcitou
uvedomit
vsemi
zatez
##cet
##gove
##mentu
##ony
##psat
##taci
##uze
##vovani
jakozto
nedavnych
predejit
snizovat
statniho
vyvoji
zvysuji
##elnou
17
1991
bankeri
celkem
jakoz
komunismu
letosni
media
nazvem
nemene
odporu
rikaji
vykonu
vysvetlit
zapadnich
##cil
##dem
##hal
##kovani
##razeni
##snych
menovych
polsko
ruskych
snizil
studii
summit
##elnych
##sena
##tnosti
##vuji
##zovane
dostupne
jaka
legitimitu
lidru
nestaci
obamy
obnovit
prijde
prinese
prinest
zdanlive
zdravotnicke
konflikty
planovani
rici
sesti
spravedlnost
vidi
vrcholu
znacny
14
budoucich
hodne
hraje
malou
plyne
prinosu
tisicileti
verit
vyuzivaji
##go
##hle
##laty
##tku
##tnich
americany
boom
malarii
vedly
vytvorila
##prave
##tici
dopadu
ochrane
odchod
poloviny
populaci
produkty
rozpoctove
spolecny
svobodne
zivote
##buji
##dane
##ere
##ment
##radit
gazy
krachu
lid
ministerstvo
pul
ropne
schopni
spolupracovat
tvrdit
ukazala
umoznit
uvazovani
vyhledu
##nal
##suji
absence
dlouhodoby
dojit
hledat
kam
musel
obvineni
ostatnim
putina
rozsirovani
stejnou
udrzitelny
washingtonu
zachovani
##cen
##nsti
##ovaneho
##stickych
baracka
delaji
mena
prekvapive
republiky
rozporu
sotva
vytvareni
##era
##rstvi
##ule
##zka
celkovy
dlouhe
dvacateho
faktorem
liberalizace
operace
promenit
typ
ukazalo
volny
vysoky
##dily
##ld
##nne
##rce
##sujici
##vede
existovat
generalni
odlisne
regionalnich
ridi
vampnbsp
volne
vyvolalo
##enym
##kovy
##stne
##vadeji
fiskalnich
kuprikladu
myslenka
splnit
teorii
uverove
vyrobe
##avi
##chazeji
##dnich
##jmu
##lena
##lete
##lum
##pne
##pustit
##veho
##vene
##vku
2020
doklada
dulezita
fazi
gaze
nejchudsich
odchodu
osud
reforme
rozhovory
spanelsku
standardy
vyvozu
##ovem
##pce
##rii
##ul
dobach
dohod
historicke
hlasy
klesajici
obema
povazuji
prosperitu
stali
zacatku
zemedelske
zkusenost
##enty
##rze
##zovych
doufat
informacni
jestli
kapacity
kroku
lezi
mala
nasledne
nastroj
pad
ramce
rozdeleni
vhodne
vinu
vznik
##ao
##dnosti
##gicky
##ola
##rok
##tele
##vedl
##zoru
firma
islam
jedina
nizka
povazuje
rezervy
ropu
sankci
snizily
venovat
vyrobni
##ec
##ivu
##kym
##tickych
chybi
financne
migrace
parlamentni
status
vladam
vysokymi
zustanou
##davaji
##dkem
##ecnou
##gie
##sovat
druheho
klade
minimalni
musela
narodnim
obcanum
ochotni
politicti
samotna
svetovi
utrpeni
##vymi
obchodovani
oznacil
trendu
udrzitelne
vule
vychazi
zalezi
zamerene
##chat
##cnym
##hodna
##jsiho
##sl
cinsti
dni
kazdorocne
obranu
opozici
potrebovat
rozhodl
sekularni
stylu
vyreseni
zajmum
zaslouzi
##eru
##jskych
##lad
##net
##tovani
##vahu
banku
dlouhodobem
globalnimu
pameti
primet
projev
stovky
takzvane
##tika
##tske
##vany
##vedla
##zely
jakym
knize
malarie
metody
obnoveni
predstavitelu
prioritou
saudska
slabsi
vyrovnat
##entu
##hody
##nni
##ovanim
##ovni
##ur
dukazu
firmam
islamske
nabidnout
nutnosti
pouzit
protesty
proudu
rozvinute
spojenectvi
transformace
trva
vyznamnych
zpusobuje
##anych
##bovat
##jnych
##lil
##nsko
##om
##placeni
##rcu
klesa
nemozne
oci
povinnosti
pribeh
pripomina
prostoru
rict
sliby
zamestnance
##aticky
##ecnych
##hodnou
##kazuje
##love
##mena
##mou
##stoupit
nalezt
osoby
pariz
pomery
potencialu
priciny
sit
vymenou
##cila
##lismu
##lku
##os
##vence
diplomacie
ekologicke
nabizeji
obamova
produktivitu
stanou
stretu
vetsim
zlociny
##hala
##istickych
##kladu
##rty
##ula
##vna
##zku
ctyr
deflace
motivaci
omezene
skol
vedet
zasoby
ziskali
##lnym
##radu
##sfery
evropskym
hlas
koreji
linie
navratu
pravdy
rezimy
tridy
##cujici
##ickeho
##nbsp
##nejsich
##tala
##vena
bych
energetickych
jichz
lecby
navzajem
nejistoty
povstani
rekneme
relativni
stejny
svetovy
zlocinu
##ah
##he
##jci
##sny
##stickym
##tane
dohledu
faktu
hladiny
jinou
nabidku
nahle
ochotu
problemum
rozumne
snah
ukolu
ukor
verejnou
wall
##arni
##ava
##lativni
##nimi
##tru
brehu
ceka
davno
nobelovy
ohrozuje
pomaha
poskytovat
qe
udrzovat
vyspele
##hava
##kty
##speje
kontinentu
mesto
schopna
standardu
vetsiho
##cin
##dnost
##man
##plati
##tahnout
dokazala
dovozu
formy
poselstvi
pouzivaji
povinnost
pozoruhodne
priliv
svoboda
tchaj
turecku
vyzvou
zaklady
##meni
##stem
300
kampani
meste
more
ochrana
podobnych
pohlavi
prikladu
siri
sledovat
tehdejsi
vyboru
vyuziva
ziskani
zruseni
##hrat
##isticky
##pani
##vodu
##zily
agregatni
dlouhou
dob
duchodu
experti
forme
kralovstvi
nasledky
pokus
pozorovatele
rezervniho
transformaci
umoznila
uplynulych
vyvinout
zapadem
##jmy
##jnosti
##klada
##razit
##zet
##zili
argentina
bilanci
neboli
nepochybne
pouzivani
restrukturalizace
temi
velikost
vladnouci
vyhodu
vyssich
##ber
##dal
##hlizi
##klad
casteji
irsko
jste
lidry
meho
nedavny
nemuzeme
polsku
potizi
pravidelne
prebytky
skutecna
tezsi
zaplatit
##hlasit
##mo
##znym
bankovnich
chvile
chyby
cinane
legitimni
mirne
normy
odmita
podnikatele
poklada
pracuji
pristupem
puvodu
rostou
rozvojovem
scenar
sdileni
sovetsky
teroristicke
uvedomuji
zalozeni
##ate
##nic
##ologicke
##rala
##rd
##veny
##vky
35
divu
dokazal
partnery
presvedcen
restrukturalizaci
solidarity
spory
stoupenci
tlaky
tradice
zacatek
zakonite
##dove
##kly
##malni
##pet
##rsko
##steni
##vazuje
##zich
bezpecnostnich
castech
dokazali
dostal
hrozbou
infrastrukturu
jisteze
pokladaji
prameni
severu
souvislosti
suverenni
umoznuji
##ari
##deni
##hovat
##ndy
##nizace
##zal
agendu
alternativni
brexitu
ekonomikou
energetickou
iranske
mnohdy
nekdejsi
nektera
nutnost
rozhodnout
yorku
##azi
##enim
##rs
##zovany
2016
aktivni
byva
ceho
demokratickou
deprese
dovednosti
ere
expanze
krach
musely
nasledovat
obnovitelne
odmitnuti
pravice
recke
schodek
sili
skupinu
stredniho
svedky
ukrajiny
veda
vojenskeho
vytvoril
zvoleni
##vnych
britskeho
predsedy
trendy
uzce
vysokym
vyvolala
zjisteni
##cek
##elske
##pci
##plni
##rceni
##ruseni
##us
celkoveho
dostala
investicim
katastrofy
letosniho
pouzivat
stanovit
urcita
urcity
##ak
##dela
##lada
##loze
##stovani
##tr
akcie
chudoba
cislo
druhem
duvera
kdezto
makroekonomicke
neexistuji
obcanska
palestinskeho
postupy
splneni
volba
zvlaste
##dam
##dat
##keho
##lenou
##lin
##liste
##nily
##pustil
##zacni
digitalni
jejz
koreje
obava
pozadavku
predem
souhlas
soustavu
sovetske
ukazal
##ovske
##poctu
##tost
dlouhodobeho
ekonomickym
kazdou
museli
novem
omezovani
pomuze
technologicke
tykajici
vystupu
##ence
##move
##ode
##oli
dosahly
ideologie
mekke
osm
planety
pochybnosti
prichazi
probiha
rozpadu
ryze
spravedlive
ukazat
zameruje
##ovny
##pomoci
2050
21
dulezity
medii
nemuz
parizi
post
potraviny
pritomnost
tematem
##alove
##bat
##covaly
##gicka
##nku
##onalni
##one
##zneni
##zor
drivejsi
gruzie
hodin
muj
museji
ochranit
realizovat
vas
##dli
##nejsim
##procentni
blair
chaosu
desitek
doposud
hypotek
iniciativa
mandat
merkelova
nejspis
nepodarilo
okamzik
procento
stimul
vyssim
ziskaly
zmirnit
ztratu
##bce
##mat
##orem
##rita
clanku
hovorit
jakkoliv
lecbu
nakupu
odstraneni
policie
pripady
prisel
pujcovat
schopen
sedm
soudni
ucetni
zastaveni
##dneni
##izuje
##nacti
##razi
celek
dostane
export
ii
konsensus
monetarni
nadmerne
obrovska
odpovidajici
pokuseni
priority
setrvale
vyhradne
vyvoz
vyzvu
##dnout
##erne
##ia
##ktu
##lost
##pal
##uly
gruzii
mlade
nejvic
nemluve
pracovniku
ropnych
sousedy
stranach
street
tlakem
umoznilo
##bilni
##bnosti
##dce
##hlo
##id
##vana
##zeno
bance
castky
cisla
demokrate
dite
dna
dostalo
dvakrat
elektriny
existence
firemni
hromadneho
libyi
narustajici
obyvatelstva
odmitaji
pomohla
quo
republikani
rychly
setkani
spolecnostech
spotreba
ucinnosti
umeni
vykonnost
vytrvale
ziska
##erni
##lozi
##pisu
##rad
##sim
bankou
dokazaly
nachazi
nemeckem
pozadi
prumerny
spojeni
strucne
vladami
##anci
##bnych
##cii
##ct
##ivne
##jiciho
##lci
##linu
##rali
##stou
civilni
dalsimu
efektivitu
financnictvi
jednom
kapacit
krajni
moje
multilateralni
nemci
politickymi
pouziva
realitu
reformni
zajistovani
zivotne
zpocatku
##kuje
denne
dotaci
hospodarskym
min
novymi
obrovskym
prestat
sarkozyho
smlouvu
spolehat
tretiny
vsechna
znepokojeni
##duji
##kazuji
##kovou
##lismus
##ohu
##oty
##pravy
##vane
chybou
dlouhodobou
jaderny
klicovy
kvality
ministri
nominalni
ona
podobny
pruzkumu
rozvojova
tendenci
teroristickych
vam
vlivem
vytvori
vyzada
zakaz
ziskaji
##dnym
##pis
##vnou
africke
dulezitou
lednu
prechodu
predstavovat
propadu
prosadit
radne
spojenym
spolecnych
stabilita
trznich
ustredni
vyroci
vysvetluje
vznikla
zavazne
zelene
##cnim
##itou
##izene
##lan
##ricke
##roval
##sobek
##xni
##xu
dosahne
g8
indicke
jednotlivce
konecnem
kontrolou
kultura
kvetnu
narody
palestincu
poskytuji
smeru
stoupajici
suverenity
tesne
##aku
##ctejsi
##desatych
##idy
##ria
##sk
##vaci
##zeneho
francouzi
muz
ostatnimi
pokladat
posiluje
projevy
snizuji
stagnace
stavet
ukoncit
vyjadril
vytvorily
zakladnim
##americke
##ceti
##izovane
##pil
##rodu
##roky
##tovali
##vek
akceptovat
bezpeci
evropanu
hizballah
izraelsko
keynes
kombinace
muslimove
patrne
plnou
podobna
predaci
prispiva
sektory
svetle
verejnem
zada
##ano
##fikace
##odni
##racie
1992
22
casem
docasne
ekonomii
hlavy
kamp
modernich
politickem
pomahaji
prumerne
studentu
ustava
##beni
##bny
##tum
##zovana
arabskem
efektivne
izraelci
japonskem
ostre
osudu
poli
pozadavek
prezidentu
prijit
realizaci
svaz
zmeni
##ecne
##hlizeji
##lka
##ncni
##rely
##suje
##tech
##telnou
##vila
##zala
##©
75
klast
kurzy
muslimske
neplati
nizkymi
pomohly
prinaseji
propasti
siroke
strukturalnich
trvaly
vyrobu
##chal
##dentu
##emi
##nact
##nam
##nesl
##vanych
case
intelektualni
liberalizaci
nesou
obav
operaci
soustava
spatna
uzavreni
zastoupeni
zpravou
##bira
##boru
##povida
##renych
##vazi
demokraticka
domnivaji
dynamiku
muslimu
pakt
pouhou
poukazuji
pricin
skutecnym
verejna
vezeni
##lozila
##nala
##platky
##rity
##vnich
bankami
bezprostredni
blizky
cervnu
cyklu
detem
jihu
kvalitu
lekari
nahradit
oboru
rizikem
slozky
stazeni
ucet
ucinnost
volnem
vylucne
vznika
##atori
##enem
##liku
##nec
##nesou
##ole
##pomenout
##pusti
##rickych
##robne
##sat
##tskych
##vci
africkych
chaos
debatu
investicnich
jednak
korporace
kterych
milion
muceni
nacionalismu
poradku
vodu
##arskych
##dra
##eme
##emu
##prav
##vedeny
##zali
jakykoliv
kolapsu
kolo
levici
myslenku
obsahuje
paliva
platby
prebytku
rozpoctovy
samo
sen
tydnu
zdrave
##bila
##licky
##miru
##ovano
##vize
arabii
celku
konkurenceschopnosti
momentalne
nakladne
nedostatkem
predvolebni
prinesla
prisla
procesy
seriozni
volbami
vynos
vztazich
zajistila
zastupci
##die
##livost
##livy
##lym
##ngu
##puje
##stni
##zeji
##ziva
150
diplomaticke
faktem
kim
nevyvazenosti
poctem
povazovat
rovna
temata
vyvijet
zahranicnim
ziskavaji
zpravu
##bnou
##bory
##ovanymi
##radi
##rskou
##sen
arabskeho
dialog
dobreho
hlavne
jadernou
jednoznacne
konkretnich
konsenzus
masivni
objevi
ohledech
ovsemze
pretrvavajici
pristehovalectvi
realnych
samp
sazce
state
vyvolavaji
##ance
##ata
##aty
##gicke
##naly
##oku
##psal
##stky
##tmi
celni
euru
francouzska
jedineho
jednoty
kandidati
konkurenceschopnost
kosovu
osobnosti
porusovani
postupem
prispivaji
soukromi
souvisejici
spolecna
starsi
tempa
uvedomuje
vyvolal
##bal
##dek
##elnym
##ida
##jednani
##kazy
##lanticke
##olu
##rak
##rela
##tce
##vraceni
chteli
chudobu
davek
devalvace
dostaly
dostupnost
hospodarskemu
kreml
kritiku
oceanu
panuje
prani
republika
stavaji
takovemu
teploty
tremi
tvorbu
usmireni
vzduchu
zajistuje
zaviset
##bovani
##covala
##haly
##ivat
##kladat
##ladu
##pravovat
##rany
##ric
##sazeni
##tila
##vce
##vidi
davky
dobrym
dostanou
expanzi
formou
mozku
nacionalismus
nejistota
ochotne
ozivit
penzijni
pokracovani
presahuje
solarni
tym
ucinil
ustanoveni
vudcu
zmirneni
##dilo
##ledne
##nuly
##zemi
1980
1994
ctvrtleti
invazi
kazdopadne
kolaps
komercni
londyne
nacase
nedostatky
odhady
omezuje
podobu
pomohlo
regiony
tezi
trumpa
ucini
ucty
velkymi
zasob
ztrata
##bil
##ciste
##coval
##ima
##ladne
##snosti
##spela
##tove
##tska
##vazuji
1995
armadu
brzdi
delsi
dle
dostali
knihy
kompromisu
prevenci
rovnosti
smenny
tesi
tez
uvedl
vrati
vykonnosti
vyzva
zbavit
zlata
zneuzivani
##acuje
##beho
##dg
##fikaci
##lskeho
##set
##zovalo
##zovanych
davat
dvaceti
efektivity
fiskalniho
jednotne
nabozenskych
nizkych
organ
pokroky
porovnani
posunu
potreb
pravdepodobnejsi
predpokladat
prilivu
rozhodovat
trhum
viry
vlny
zahrnovat
##ckymi
##co
##ds
##elum
##ez
##ler
##mova
##out
##rda
##seny
cenne
dedictvi
francouzskeho
funguji
ku
obcanskou
papiry
peclive
pohyb
preji
pusobit
realitou
soubor
tradicnich
tvorby
varovani
##chazi
##dala
##dent
##izuji
##kde
##leny
##listicky
##ricky
##tovaly
##ut
##vod
##vratne
##zme
24
ackoli
automobilu
bankrotu
cehoz
cekat
financnimi
formu
hraji
ignorovat
obzoru
palestinsky
politickemu
rakoviny
snazsi
staci
tretim
vahu
vyzev
vzhuru
zdi
##cniho
##hali
##lnost
##teni
##til
agenda
clanek
dostava
dvacet
energeticka
informacnich
konsensu
kulturu
legitimity
ministru
myslet
nechce
nejchudsi
podstaty
posili
predchozich
regionech
rijnu
rusove
slaba
slouzit
uvazovat
vzdelavaci
zakladu
##byt
##hli
##pela
##rovy
##souzeni
##vesti
##vody
##voli
##zivy
##znani
1945
bin
centrum
clenem
infrastruktura
milionum
mylne
nasledujicich
obavam
omezovat
plyn
podminkach
pritomnosti
splacet
spravnym
technicke
uhlikovych
vedeckych
vlna
vzato
vzdor
zprav
##alizace
##dlem
##nach
##rku
##tali
afghanistan
bariery
bilateralni
bod
dobrovolne
identity
kazdem
kontrole
pomohl
posilovani
prijala
skonci
spojence
tvrdil
zakladnu
zpusobuji
##daji
##ickymi
##ja
##klady
##lenych
##lice
##mne
##onske
##orske
##ovacich
##pravni
##rka
##rta
##zdu
cervenci
chtel
jadro
jednostranne
kdybychom
komplexni
naroda
odmitl
pacientu
pasti
prezit
primeri
primych
sledovani
slozite
stranky
tretinu
uskutecnit
uvadi
vedecky
##ese
##ise
##lik
##pad
##sich
##sobi
##taly
##tava
##ver
aktivit
ambiciozni
bremeno
charakter
energetiky
faze
hraci
islamskeho
kdykoli
konvencni
nadto
nastupu
natoz
nemeckych
penezni
pobrezi
prvky
rovnost
soustredit
systemem
tercem
ucinila
volice
vybudovani
vyvola
zisk
##hodu
##jsimi
##kl
##kladne
##nutit
##ody
##sr
##vkou
##znich
dali
dneska
doba
eurozonu
g20
mezinarodnimu
nemeckeho
reditel
revolucni
rozdilu
sdr
tradici
veritelu
zadouci
zapojeni
ztrat
zvolen
zvysilo
##acni
##dman
##lnich
##lovani
##naci
##oky
##ord
##raly
##vedly
##vlada
##zita
27
americkemu
bezpocet
chape
clintonova
kompromis
navrhl
nedokazala
nejaka
odrazeji
potrebnych
pravy
prispela
referendum
ruznymi
rychlejsi
saddama
skrtu
soukromem
soupereni
starych
udrzitelnosti
urednici
vakciny
vedcu
vedene
zachranu
##acuji
##catem
##dene
##galni
##hral
##ile
##logie
##nka
##rostou
##uzi
##vii
##��
ambice
blizkeho
city
fakta
formalni
index
kandidat
meze
motorem
nami
okraji
palestinskych
pracuje
presvedcive
primarni
skupine
tezit
trochu
vyznamna
zvirat
##azeji
##eslo
##gaci
##ktery
##liva
##minovat
##novych
##ntalni
##por
##rsku
alternativy
boomu
citit
doporuceni
jista
nasim
nastal
nestability
obrazek
podminkou
priklady
produktivita
realnou
soky
tradicne
trvalo
ukazaly
usd
vietnamu
zahajit
zajistil
zivobyti
##dkou
##drzi
##duje
##ge
##jma
##jmout
##jnost
##kne
##rnu
##stava
##tna
##venci
chovat
efektivnejsi
jasny
jazyk
jednotlivci
koalici
kola
koordinace
levne
linii
nikoho
oznacuje
pravomoc
predmetem
predstavu
prinesl
prudky
realita
rozhodla
rozvojovym
slib
systemove
umoznil
usiluji
uspechem
vybor
zahajeni
##alisticke
##birat
##dr
##line
##nili
##pr
##rech
##ritu
##rnich
##romne
##rujici
##sela
##tova
##vaha
duveryhodnost
iransky
japonsky
kvalitni
mise
nastrojem
nedavnem
obyvatelstvo
odzbrojeni
opira
oslabeni
oxidu
plnit
pouhym
povedomi
prednich
prisne
razne
ruskou
smer
zasahu
zmenami
##ada
##avil
##gracni
##kalne
##novali
##oj
##tik
##van
##vie
bohati
evropskem
ideologii
medialni
modernizace
nadace
nesporne
osobne
regulatori
riskantni
rodice
schopne
sedmi
smluv
tezkosti
tzv
urovnani
usiluje
uzitecne
zaruky
zasadnim
zjistili
znicit
##ctem
##ialni
##knuti
##kraje
##lita
##ojovat
##osne
##pousti
##vily
abych
cosi
dodavky
islamsky
kandidatu
migraci
nakupy
nejak
obchodnim
opozicni
prezidentskeho
pripada
prodej
puvodni
sance
strategicky
strategickych
tbc
turecke
upadku
vnimani
vyjednavaci
vzniknout
zajistily
znacna
##biraji
##dvacateho
##ery
##hoda
##ormou
##ovanost
##rannych
##rnych
##sudek
##uta
##vacateho
##vedou
##zite
angazma
dukaz
dusledek
irsku
jadrem
klicem
mereni
mexiku
nesireni
oficialne
puvodne
realny
recky
rozsahlych
skod
socialne
srdci
suverennich
technologicky
transakci
volani
vyhod
zdroji
zenam
##ang
##ceno
##dske
##kla
##ncovat
##ovanosti
##rahu
##tezi
##uky
##vedeni
alianci
budovat
cinskou
dolu
energeticky
lidstva
mam
masove
nechteji
nedoslo
nejnovejsi
odpurci
podkopava
portugalsko
pravici
pravniho
prichazeji
radou
rozvijet
sef
tisku
ukrajinu
vypadat
zdravotnickych
ztrati
##fe
##ira
##liny
##ney
##num
##raceji
##ridit
##rseni
##sil
##usi
##vskych
aktualni
deflaci
dil
funkcni
klesl
klesla
klicova
lidsky
lidstvo
narod
nicim
nizsich
odrazem
preshranicni
scenare
spolecenskych
ucastnici
zameruji
zhodnocovani
##do
##losti
##pila
##pky
##rade
##rale
##seli
##sila
##tovala
23
breznu
bublina
celkova
cest
chtit
demokratickeho
devadesatych
kandidata
napravit
nezbytnou
ocich
protestu
reditele
rozhodujici
schazi
stabilite
stara
stimulu
ukaze
usporna
uvolneni
velkem
verejnym
zalezitost
zapojit
zdat
##ady
##esne
##livosti
##naji
##pec
##ryva
##sada
##sovani
brusel
cokoliv
depresi
dlouha
expertu
francouzskych
jaderna
nasilne
naucit
obnovu
obrat
obratit
pekingu
podpori
postrada
poznamenal
rozpoctovych
rozsirene
spanelska
staleti
studenti
televizni
tymu
uceni
udaju
vstoupit
zduraznuje
znamky
zvenci
zvysenim
##adu
##edne
##hke
##jmove
##kuji
##rialni
##rky
##rovali
##ven
byvaji
cinil
darci
dominantni
jihovychodni
menit
nahoru
namorni
nebyli
norem
nuti
onen
ozbrojenych
popredi
prineslo
pruzkum
republice
ropa
rozhodnou
scene
snizilo
ubytek
umoznily
velmoci
venkovskych
vzdat
zapadniho
zmenach
zustala
##cily
##dlive
##jmech
##klon
##kraj
##lnejsi
##lozeni
##lska
##nive
##ologicky
##pas
##rila
##tani
##vili
45
byvale
dialogu
dostavaji
drog
etnicke
iniciativu
invaze
jasna
jednotek
kterem
kupni
leciv
lidskou
mekkou
minulost
mozny
mravni
nabidka
naroky
nekterym
novemu
obranne
okupace
osmi
partneri
pocitu
polska
pouha
prekazkou
pristiho
rozvojoveho
sdruzeni
smennych
zavadet
zaziva
zpusobene
zpusobi
##hrava
##ilu
##isticka
##jskou
##listickych
##nicky
##pojeni
##pravou
##rovna
##taz
##tskou
##vrat
##zek
##zeli
asijskych
automaticky
celosvetovy
donedavna
dulezitych
indonesie
krajne
kvantitativni
nasledujici
neefektivni
opak
plynouci
potrebnou
prosazuje
rozpocty
uskutecnovat
zvratit
##avaji
##denty
##dovani
##hlasil
##ikove
##izenych
##jskeho
##kovym
##lal
##ley
##litni
##ll
##movat
##poji
##sudku
##tecni
##ter
##uti
1996
dobrych
funkcniho
haiti
iranskeho
jakakoliv
jimi
katastrofalni
kvetna
lete
obrovskych
penezi
pohlizet
preje
rodin
sektorech
srdce
usilujici
vyvolaly
zakladny
##arske
##dali
##dska
##esi
##nickych
##nkove
##pada
##pie
##poru
##pravny
##rostl
##vanou
##zani
aktivne
cervna
cunami
david
definovat
devatenacteho
dny
dokladaji
dospet
dosti
druh
hluboko
modernizaci
myslenek
nejnizsi
nejvyssiho
objevily
predpoklad
prispevky
prosazuji
prostredek
referenda
robert
rozvojovou
sok
soucasnem
stary
touha
uprchliky
vladimir
vlastnosti
vsi
zajistovat
zamp
##ativni
##aze
##azet
##cti
##doby
##fikovanych
##hnat
##knout
##neme
##nuta
##ouva
##ovnici
##pady
##pekt
##platit
##platku
##povani
##razuje
##rtu
##sady
##traceji
##ujicich
##vatele
##vkem
##zkou
##znaky
akteri
cinit
dauha
dokazi
jmenu
komunit
kritiky
mensiny
mirou
nezbytny
otevrenou
pozde
prumyslova
rozhodnutim
skonceni
spotrebitelu
subsaharske
techniky
umele
vladnout
##ator
##cinnost
##covane
##davat
##ecti
##eneho
##leji
##nama
##naset
##nul
##olni
##omunikacni
##pory
##rocni
##stane
##zivu
blahobytu
bohatsi
detske
dokonale
dosahuji
jakoukoliv
klesat
lokalni
migrantu
nadchazejici
odbory
osobu
politikum
potlacovani
predvidat
probihajici
produktivni
reformovat
schopny
sjednoceni
slunecni
spor
stavajicich
svetovym
svobode
videli
who
zpatky
##acovani
##borech
##ca
##io
##kladani
##pen
##pesne
##ralni
##rnym
##uci
##ud
##ustit
akteru
americkymi
chile
hypoteky
objevuji
pokracuje
popularni
prevence
prispelo
priznat
procenta
prodavat
reality
skoncila
slozitejsi
stabilizaci
teroriste
univerzit
uprostred
uzavrit
valecne
volebnich
zmenou
##chala
##dena
##guji
##ismem
##jmem
##kru
##nikum
##pely
##pustila
##relo
##rina
##rskym
##ryt
##telny
##tnost
##tovalo
##trace
##vime
1993
australie
clovekem
dekady
dnech
klima
ledna
omezeny
paradoxne
pravnich
prerozdelovani
pretrvava
referendu
sexualni
seznam
slyset
spojencu
stredu
svedsko
vnitrnich
zijicich
zprave
##chod
##doval
##esel
##hled
##hodnym
##hoduji
##inovane
##oci
##padu
##pecny
##pisuje
##pousteji
##rnosti
##rocit
##skemu
##snost
##speji
##tkem
##uzeni
##valit
##zova
jednotlivcu
jejimu
konat
konsolidace
obchodniho
omezi
prijimat
rozpeti
silami
soudy
spojena
spravnou
teroru
typy
udrzitelnost
upadek
vyzval
zasedani
zaver
zebricku
##deli
##ecnym
##esu
##ev
##graficke
##ine
##lozili
##nizaci
##np
##ologie
##plne
##ryti
##sili
##stit
##tiny
##uhy
budto
bunek
chapou
dobou
general
institucemi
inteligence
izraelska
izraelskeho
lecba
malym
nastup
nemoc
normalni
osvobozeni
ovzdusi
podobnou
pripraveni
prumerna
snahou
snazil
spolecensky
spravu
uhliciteho
uspet
uznat
vojaci
vyjadreni
vyslovne
zmenila
##boly
##brojeni
##elskych
##kaji
##lozen
##odu
##pousteni
##pravi
##ranty
##rovala
##rovane
##schopne
##tickeho
##xistovala
absolutni
bere
beznych
brezna
bunky
chapat
evropskymi
fiskalnim
fungujici
guverner
juanu
klimatickym
kremlu
muslimskeho
narustu
nejvyznamnejsi
porozumeni
rychlosti
srpnu
stret
svrzeni
tydny
vyrobku
zatreti
zbranemi
##ande
##cenych
##cs
##gii
##hodnych
##jeti
##luvi
##nani
##nula
##ose
##pecna
##rchie
##renou
##traci
##vatni
##zda
alternativa
analyzy
boure
cemuz
cervence
diplomacii
enormni
husajna
investorum
jednotneho
letosnim
mezinarodne
naposledy
omezuji
pokusy
prijdou
protekcionismu
pujde
schvaleni
soku
spojitost
syrske
tajne
terorismem
tok
udrzovani
uhlikove
utocich
uznava
vybaveni
zrizeni
##chrani
##cinnosti
##enti
##litu
##nii
##pali
##pojit
##rsi
##spel
##tnim
##vahy
##vedlo
##vratu
alternativou
casove
dodavek
identitu
jejimi
narocne
nasledek
ochotna
odmitli
ony
pan
pi
pozadovat
preventivni
rozsahly
sanace
soustave
suverenniho
svetovem
vedoucich
zbytecne
zemetreseni
zena
zhorsuje
##avila
##dl
##gnozy
##ictejsi
##kazal
##kcnich
##mes
##ojene
##opna
##rnuti
##senych
##sferu
##tily
##viseji
##vnym
##zaly
400
chapani
choroby
demokratu
dolarech
domaciho
dospeli
firemnich
hrozeb
koncept
lidskym
lonskeho
maximalni
nepratele
obcanskych
omezena
opustit
pobidek
podstatu
pravidlo
pripravit
privatizace
pruzkumy
realna
seznamu
sirokou
sluzbach
soukromym
statnim
umluvy
utracet
vyviji
zemedelskych
zodpovedne
##bie
##cas
##chazelo
##eb
##imum
##ktivni
##kyne
##lava
##nasobne
##povidaji
##rovi
##sleli
##vazat
28
agentura
analyza
atmosfere
casy
dum
dusevni
generalniho
indicka
indonesii
kaidy
koordinaci
kriteria
malokdo
muslimskych
nikterak
nizozemsko
nuceni
oficialnich
opatrenim
paul
podnikatelske
poskytl
prekvapenim
pristehovalcu
prospechu
reformam
rychleho
signaly
silneho
silnym
slibu
spravna
srbsko
ukoly
uspornych
uzitek
vladci
vystavby
zavedla
zavedly
##bilo
##cova
##hlasila
##izacni
##lech
##logii
##loha
##minuje
##ndu
##novaha
##ojuji
##onstrukci
##ozi
##pak
##stva
##vka
britskych
cemu
cestovni
clinton
devalvaci
ditete
dlouhodoba
england
jednotny
klesly
majetek
mesici
nedojde
nedokazal
nedokazaly
nulove
odpovednosti
paktu
pocitace
podobnym
podzim
potencialnich
pripravena
rozvijejicimi
rysy
silneji
sirsim
slov
souvisi
stacit
trestu
vedena
verohodnost
zahajila
zajistili
zamereni
znepokojive
zvysene
##avel
##bezne
##brani
##dive
##drzuji
##evropske
##ezi
##hraje
##les
##lova
##movych
##nostni
##nskym
##padni
##pukla
##radni
##raz
##raze
##renosti
##rovaly
##siluji
##tanou
##tovane
##vnim
amerikou
dokazeme
dostatecnou
epidemie
hizballahu
hodnotach
jdou
kvalifikaci
mohutne
muzete
nejlepsich
neuspech
nizkym
obavat
obohacovani
ocekavaji
opravnene
otevreni
oznamil
prinejlepsim
prizpusobit
provest
rozsiri
rozsirila
rusti
socialnim
staveji
strukturu
technologickych
teoreticky
udelal
versus
vodni
vybrat
vyrobnich
zavadejici
zkratka
zmenilo
zvlast
##25
##dly
##hodnotit
##istiky
##jny
##kaly
##kazu
##leduje
##minene
##nalu
##opny
##pisy
##pojuje
##raka
##razku
##roste
berlin
bolesti
civilistu
distribuce
dodrzovani
donald
dubnu
forma
historickych
kladou
likviditu
materialu
nadnarodni
nalezeni
nest
oznacuji
platnost
podoba
potrebe
pratele
pravdou
projevi
prosperite
racionalni
rizikum
rozsahlou
smlouve
soudce
stimulaci
strategickou
tun
upravy
uzemni
vymahani
zahajil
zakladem
##17
##bem
##flacni
##lesne
##namo
##nti
##pii
##plikace
##povane
##vaze
##vijeji
##vum
##ys
##zilo
1967
aspekty
blizko
body
brothers
cenami
chudobou
civilizaci
domniva
dosahli
egypta
faktor
hranicemi
kilometru
mobilni
narok
novi
otevrit
podniknout
prioritu
prisnejsi
rezoluce
sazbu
stranami
teze
times
vidime
vladimira
vlasti
vyrobci
zamerem
zjistil
zmenil
##ajici
##alizaci
##azku
##ficke
##istickeho
##jove
##lav
##listicka
##lity
##lizuje
##ohy
##omie
##ovava
##padne
##roka
##rstva
##stickeho
##sticti
##°c
26
agentur
debate
dluhovou
dopravy
google
greenspan
hru
indicky
jednoduche
jevit
kosovo
kritici
levnejsi
lidove
manazeri
ministryne
muslimy
odhaleni
odpovida
otevrena
parlamentnich
plny
pojem
ponechat
povzbudit
predsednictvi
predstavy
premyslet
prislib
recept
tehoz
uspesny
uvahy
vydat
vysoko
zalezitostech
zavedl
ziskava
znamenaji
##bna
##dia
##eze
##grafie
##hod
##ista
##jate
##kok
##leho
##lskych
##oucit
##ovskeho
##pokojit
##prit
##razky
##rnost
##rsti
##snich
##soudit
##usti
##valne
civilizace
ekologickych
hlasovat
institutu
izraelsky
jmeno
koupit
kulturnich
lepsim
moznych
nastupce
nedokazali
nejistotu
neudrzitelne
penze
postupovat
potrebny
predpovedi
princeton
prinesly
prispely
pristim
retorika
rychlost
smenneho
sousedu
struktur
tj
uskupeni
vedeli
zamerne
zastupce
zony
ztratila
##70
##bet
##bytkem
##gace
##hlasi
##kraty
##loval
##lozene
##nde
##oju
##omunikaci
##onaru
##opnou
##ore
##pira
##rme
##rostly
##rovnavat
##rusil
##sadit
##stavil
##vedenych
##zrostla
1979
berlusconiho
bruselu
celosvetoveho
dohodnout
dovoz
dusevniho
dvere
investicemi
lehman
lekarske
mezitim
nadseni
nakup
nasem
nizozemsku
obratu
odolnost
okoli
ovlivnit
planetu
policejni
poskytnuti
potykat
poukazuje
prijal
protokolu
reckeho
skupinami
spatneho
teroristu
testu
tvorbe
udrzuje
urcitych
viny
volit
vydaji
vyznamnejsi
zasadnich
zustaly
##ahat
##atky
##avat
##bene
##bove
##chaji
##dari
##drzel
##drzet
##erii
##hodnoceni
##hova
##leteho
##licke
##liv
##logickou
##min
##minuji
##ogii
##ovavat
##patrne
##prijmovych
##ril
##rozenych
##snym
##votni
##zvany
argentine
australii
dosavadni
ducha
dulezitost
egyptske
kmenovych
kosova
le
nanejvys
nejsilnejsi
obraz
pochazi
potlaceni
pracovniho
projevuje
prosince
pryc
sboru
snazili
spatnou
stimulacni
tela
tydnech
ucinna
vkladu
vymyceni
zasadne
zvirata
##bici
##bily
##bran
##ckem
##dukovat
##jata
##kazat
##lce
##lila
##nistickych
##nitu
##praven
##pravne
##pustili
##racii
##ranny
##rusi
##stani
##stech
##stovat
##trpi
##uzit
##zum
##zvana
abu
agresivni
akciove
cisty
devet
diskutovat
dohledne
geneticky
hrozbe
idealni
iniciativ
investuji
jakekoli
kvantitativniho
nakolik
nezmeni
oboji
odjakziva
potravinove
prijimani
provadet
reci
rostoucim
rozpad
souvisejicich
testy
vyberu
zacleneni
zakladniho
zamerovat
zavedenim
zavisle
##aliste
##avit
##deje
##esla
##graci
##hi
##jky
##lejsi
##omobily
##ovavaji
##stuje
##telum
##vrch
blahobyt
castku
cekaji
chrani
dnesniho
dulezitym
ekonomickymi
ekonomikam
katastrofu
korekce
ktereho
nasazeni
neposledni
obri
ohromujici
perskeho
plneni
posledniho
prekazek
rustove
souhlasu
souperi
stagnaci
stolu
styl
takzvanych
trest
tvrzenim
ulohy
uzivani
uzke
vedlejsi
vesmes
vystup
vytvorili
zaklada
##atek
##baji
##bin
##cemi
##che
##entni
##itelne
##jimaji
##jsimu
##kli
##kosti
##ktivne
##lovane
##nat
##ncovani
##nely
##porne
##ran
##rovany
##rti
##ton
##zadovala
##zbu
##zitou
65
biliony
bouri
celkovych
cenou
dokazat
fosilni
genu
hillary
nekoho
odstranit
otec
pole
poplatniku
prisli
prodeje
pujcovani
resi
samotneho
stabilizace
statku
stimulace
ucinily
uspesna
vodou
vyjimky
zustal
##anske
##bost
##drzela
##drzely
##gana
##gickych
##kulace
##mismu
##nulo
##oka
##pala
##puji
##stene
##tavuje
##tra
##uch
##vice
##visti
##volani
##we
celych
dilli
duchu
guverneru
hodnotou
hrube
izraelskych
jakehokoliv
jmenem
mensim
mexika
moderniho
moudre
naplnit
navrhuje
nepodari
perspektivy
pomahat
potyka
povedou
pravu
prezidentsky
prislo
prislusniku
prispevku
republikanske
stareho
tajemnik
touzi
tretina
trzne
udalost
uranu
uroku
vlastnimi
vratil
vyrobky
zabijeni
zahrnuji
zajiste
zjistit
zlepsovani
zvolit
##alnich
##arda
##biny
##chali
##eta
##guje
##kat
##kladaji
##latne
##listicke
##nilo
##novalo
##nute
##nutim
##palovani
##pecnych
##plikaci
##pou
##racoval
##renost
##rozeny
##statni
##stupu
##tice
##vencni
##verovani
##vniho
argumentu
barier
bombardovani
dilem
ekonomikami
institucim
komunikace
koreou
kratkodobych
lidra
nabozensky
nemohl
nesmime
ochoten
odlisnosti
okupaci
otevreny
oznacit
penzi
pokusu
poradce
potykaji
pouhy
pracovniky
prakticke
presun
prevzeti
rostla
spolecnostem
talibanu
televizi
tpp
trvajici
udrzi
umrtnosti
uvest
vazeb
zijeme
##daly
##der
##formovat
##jna
##kymi
##luzi
##ntovane
##odan
##plny
##ps
##rabi
##racet
##sova
##stuji
##tny
##vadeni
diskriminace
divky
dlouhy
dosah
drzeni
hledaji
hongkongu
investici
izolace
libanon
nachazeji
navstivil
obamovy
obrovskeho
partneru
planete
populisticke
promenila
protokol
trvala
uplatnovat
uverovych
vicemene
vydajich
vysokeho
vystoupeni
zachazeni
zasah
zdaji
##ati
##bili
##bizet
##borne
##deleni
##dka
##ebni
##erem
##fera
##imalizovat
##jsko
##kazala
##komu
##lani
##liz
##nisticka
##oby
##ormovani
##pili
##rozeni
##stanu
##stku
##tach
##tnejsi
##tom
##vcu
##vinula
##vrhnout
##zd
##zovy
britove
castka
celkovou
daji
drzitele
ekologicky
hranicich
jean
jistotou
konsenzu
mirovy
monopol
naruseni
podobneho
pouceni
poznani
rijna
rostoucich
rozhodli
skutecneho
slabosti
slozek
tisk
transakce
transparentnosti
ucely
ucinili
veskerou
vetrne
zadosti
zajmem
zranitelnost
zvladnout
##cili
##hlas
##ire
##jce
##jcit
##jima
##kazovat
##konci
##kryte
##lakat
##lety
##mene
##ncum
##nel
##nuty
##orni
##pcni
##povedet
##rozi
##rusuje
##sis
##sobit
##uce
##vazna
##vladat
##wn
##zive
arabsky
chysta
elektraren
forum
jakkoli
jednalo
komunismus
kontraproduktivni
lepsimu
lonskem
mocnost
nahodou
namesti
nejvyssich
pokusi
pokusit
polozit
posledku
pozaduji
prezidentovi
prispel
priznive
samospravy
sejdou
spotrebitelske
starosti
supervelmoci
tureckem
verzi
volebniho
vyroba
vyvolane
vyzadovalo
vzdycky
zdravotnich
znamy
zridka
##60
##asu
##brane
##elit
##elnosti
##elo
##ivite
##jsku
##livou
##mal
##mluva
##mluvu
##novila
##ot
##pravit
##radne
##statne
##struktivni
##tak
##tniho
##xicke
##zemni
##zenyrstvi
berkeley
berou
blizici
budoucim
chu
chudsi
clenum
ekonomickem
firmami
hlavnimi
ipcc
japonskeho
kategorie
klesaji
lidr
majitele
mocne
nakladech
neuspechu
obcanstvi
obnove
ohrozuji
pocasi
pravum
prevysuje
priorit
pude
signal
sleduji
slibuje
spoleha
stimulovat
touhu
transparentnost
vaznou
vrstvy
vyhlaseni
vytvorilo
zadost
zemniho
##anem
##arem
##chranne
##cimu
##dniku
##hranicne
##istickym
##izoval
##ki
##nari
##ns
##oc
##oncu
##racni
##ranu
##rcovat
##rickou
##rozena
##tosti
##tyka
##use
##vazovat
##vedli
##vykle
250
adaptaci
akciovych
bezprecedentni
clenskymi
ekonomy
evropany
fatahu
forem
ihned
indexu
irackych
italske
jedince
mensin
mne
nezdaru
npt
nynejsi
pocinani
pokusil
potlacit
predpoklady
rise
sfery
slaby
snaham
soudnictvi
srbska
standard
ved
voda
vznikl
zahrnujici
zajistuji
zakazu
zbyva
znicujici
##adi
##ahaji
##antu
##atickou
##dnoceni
##govat
##hodit
##icich
##jmou
##jstvi
##kani
##ladsi
##lniky
##logicke
##most
##movi
##nana
##ojeny
##omii
##onstrukce
##pku
##ponuje
##rane
##rantu
##rdy
##rine
##rizove
##slou
##sme
##tajici
##veru
##vyseni
##xt
angela
centru
chytre
cti
dalekosahle
danovy
dlouhodobejsi
doslova
doufa
drivejsich
environmentalni
era
evidentne
fakticky
hre
imigrace
individualni
jistem
kandidaty
kazdemu
kniha
koho
konani
kontrolovat
konzervativci
koreu
lek
libye
nezbytnych
nigerie
noc
noviny
nuceny
odkaz
odmitla
osobnich
padne
periferii
pochyb
pohybuje
pomaly
predcasne
prekonani
prodat
pusobil
snizenim
solidarita
solidaritu
spojit
spolecnym
stejna
univerzite
vlnu
vyhlidka
zatceni
zpusobilo
##ave
##aznym
##bylo
##ft
##hovaly
##inou
##latu
##lerance
##lili
##lnuji
##mach
##nanych
##obeni
##ok
##piraji
##rac
##ranou
##rci
##roku
##spokojeni
##stavi
##stoupeni
##stoupil
##stupuje
##trati
##try
##vladaji
abbas
atlantiku
beze
bolest
brutalni
cenam
cizi
dalece
jmenovani
johna
kabinetu
kolegove
mistrovstvi
narazi
odmitani
politikam
predchazet
pribehu
prijaly
provozu
rozsahla
rozumu
samotnych
sefa
soudci
spolehaji
sprave
stoupencu
strme
ucinnejsi
udelali
vojaky
volbu
vseobecnou
vyjde
vykonat
zalozenou
zpusobit
zvazit
##29
##ama
##beralni
##deji
##fta
##hlasuji
##hnuti
##hoduje
##ickem
##jisti
##koveho
##logicka
##lt
##luv
##minku
##nami
##ncem
##nimu
##novana
##op
##otik
##pomenme
##pracovat
##rabove
##razet
##rode
##rozene
##stat
##tejsi
##uda
##uzuje
##valifikovane
##vazovani
##vite
##vodi
##voji
##zelo
##zenim
divek
dnu
dodatecne
dubna
investicich
kanada
kontinent
limity
mirovych
nici
palestine
podporil
poradek
poroste
potiz
pravech
pravicove
prirody
promeni
puvod
regulacnich
rope
sazba
skryva
strednich
tvrdili
tvrdou
ucinku
udela
urokovou
uskutecnovani
ustave
vetsimu
virus
vladne
vyzvam
zajistilo
zamer
zhorsi
zijici
zniceni
zridkakdy
zvysujici
##50
##avani
##delit
##dnit
##ezce
##fiho
##genci
##hlikove
##hrady
##ic
##istickou
##ivace
##ktor
##lize
##mad
##movu
##ncuji
##niknout
##plnila
##rcovani
##reno
##rva
##stupovat
##taveni
##trva
##vrzeni
alternativu
cyklus
dostupnych
elektrarny
filmu
geny
kodani
konsolidaci
kresel
nevladni
nezavislych
obecneji
ocekavalo
oddeleni
odhalila
odvratit
omezenim
oslabuje
skolni
struktura
telefonu
tytez
uplatnovani
uskutecni
vek
vstoupi
vyhybat
vysetrovani
zabyvat
zahy
zamerenych
zateze
zhodnoceni
zlepsi
##azna
##cce
##den
##fere
##garet
##imne
##iz
##jet
##jicimi
##ju
##kdy
##koval
##lavou
##lek
##lnovat
##mnou
##nuli
##ojeni
##orejske
##pektu
##plikuje
##pokojenost
##rdi
##rizeni
##rte
##sadil
##strasovani
##teli
##tev
##tovosti
##ulu
##valecne
##vaty
##vedomi
##vychodni
##yn
##zke
600
bankeru
bill
cem
chorob
chovaji
clen
diktatury
doufaji
hladu
hromadeni
hur
indickeho
internetove
japonci
kapitaloveho
konkurovat
kratkodobem
lecbe
mistnim
najednou
navzdy
nizsim
obnovitelnych
odpusteni
ozbrojene
papez
pristupovat
promenil
ryb
senatu
serii
singapur
soustav
spatnych
trvalou
ubytku
univerzalni
uzsi
veskera
vypuknuti
vyraz
vyuzitim
vyzyva
zalozenych
zamyslet
##ac
##cinnou
##fricka
##gickou
##kalu
##lacni
##mismus
##niste
##onuji
##pisuji
##pna
##raha
##reji
##sily
##valila
##xistovaly
##zije
chyb
cistych
delniku
dlouhodobym
dosahovat
drtive
dvoji
eru
hamasem
hloubeji
hra
hure
institucionalnich
jednoducha
kazdodenni
matky
ministersky
moskva
nigerii
obecnejsi
objevila
pomohou
porozumet
pozorovatelu
prezidenti
pulstoleti
raket
rizikove
spolehlive
stradani
svobodnych
trikrat
umyslu
upevnit
urcit
uzivatelu
zadrzovani
zavedene
zdravy
zelenych
##asne
##ble
##clenit
##hlych
##hovala
##ide
##ikou
##isku
##ledoval
##listy
##lnici
##lom
##lstvi
##mitnout
##nene
##nterpretace
##nutelna
##omy
##pel
##ron
##rstvu
##sobil
##stickymi
##tahovani
##talni
##ujeme
##voleni
##volila
##zad
##zbam
##znici
ceske
darilo
diskriminaci
dluhova
dobro
domacim
etnickych
hospodarskem
hovoril
japonskych
kgb
kruhu
lodi
logika
merkelove
mluvit
mocenske
naplneni
neprijatelne
nezakonne
obtiznejsi
predsedou
presunout
prislusnici
prudke
spickovych
spotrebe
spotrebitelskych
sprava
stranam
strop
tendence
tin
ulicich
varoval
vladniho
vyskytu
zadat
zastupcu
zavedena
zive
znovuzvoleni
ztraci
##ad
##ahujici
##arstvi
##atickych
##aven
##blizsi
##dilet
##ea
##elnymi
##emne
##ety
##icni
##lacenych
##nali
##necuje
##nskem
##oe
##ority
##plnou
##podobny
##raf
##raneni
##redi
##regulace
##sive
##stotu
##telnejsi
##teze
##ticti
##vazeni
##yl
##zval
##zyva
1973
bezprostredne
cameron
celosvetovych
center
chyba
ctvrte
danovou
deklarace
dodrzovat
dopravni
dostupnosti
elektricke
jadru
kritika
lekaru
navstevy
nejbohatsi
neprimo
nestabilitu
odpovednost
ovlivnuje
prijali
prisly
pristehovalci
pritazlivost
prochazi
prohlasila
realite
riziky
ruskym
silnych
sirsiho
slepe
spoustu
spravedlivy
stoupa
svedomi
tentyz
trhem
trvaji
urovnich
urychlit
vseobecny
vyssimi
zemekouli
##68
##abilita
##care
##celych
##cina
##cvik
##dekvatni
##dely
##dnim
##ejme
##idla
##inky
##ledcich
##lmoc
##lniho
##lodin
##matu
##mem
##ncovane
##noveho
##ogove
##okraticke
##orskych
##ota
##ovnou
##platnit
##radnych
##ram
##rek
##rexit
##sely
##snymi
##stoupi
##stum
##sudky
##tizi
##valitnejsi
##viti
##znu
##zrak
akcionari
americko
bomby
celosvetova
celosvetovou
cinanu
danovi
dozajista
epidemii
horizontu
irska
kanclerka
mobilnich
nasledovala
nedokazi
nepratelstvi
odhad
odhaluje
ovlivnovat
posilovat
postradaji
pozaduje
predstavoval
rovnovaze
sektorem
severnim
stabilizovat
sucha
teroristy
trvani
valecnych
vseobecna
vyber
vystavbu
vyuzil
wan
zed
zrusit
##adit
##buci
##chou
##ciny
##datele
##dileji
##ed
##friku
##fu
##hujici
##kovske
##ktem
##ledna
##livych
##lnit
##lnovani
##lture
##mala
##monii
##noru
##ofie
##ologickych
##opoliticke
##perujici
##plnuje
##rana
##ranovat
##rapie
##rba
##rusit
##sovych
##stavila
##venych
##vizi
##zdy
##zic
##zla
##znacil
##zovan
berlusconi
budouciho
cong
donalda
jinam
konfrontaci
kontrola
korporaci
kupredu
letecke
menovym
muselo
nacasovani
nacionalisticke
nahradi
nemame
pocty
podezreni
poplatnici
poptavce
pravidly
prekotne
prenosu
presprilis
primy
pripustit
prohlubujici
protejsky
putinova
rozmanitosti
schuzce
smenne
souhlasi
srpna
svetlo
tamnich
tragedii
umrtnost
venuje
vydal
zide
zmirnovani
ztratil
##!
##"
###
##$
##%
##&
##'
##(
##)
##*
##+
##,
##-
##.
##/
##:
##;
##<
##=
##>
##?
##@
##[
##\
##]
##_
##`
##q
##|
##¡
##£
##§
##°
##±
##¶
##·
##æ
##ø
##ı
##ł
##œ
##ʼ
##β
##–
##‘
##’
##‚
##“
##”
##„
##•
##⁄
##€
##−
##≤
##▫
##
##�
